{
  "target_vocab_size": 512,
  "token_to_id": {
    "<PAD>": 0,
    "<UNK>": 1,
    "<BOS>": 2,
    "<EOS>": 3,
    " ": 4,
    "!": 5,
    "'": 6,
    "+": 7,
    ",": 8,
    "-": 9,
    ".": 10,
    "0": 11,
    "1": 12,
    "2": 13,
    "3": 14,
    "4": 15,
    "5": 16,
    "6": 17,
    "7": 18,
    "8": 19,
    "9": 20,
    ":": 21,
    "=": 22,
    "?": 23,
    "A": 24,
    "AI": 25,
    "An": 26,
    "Answer": 27,
    "B": 28,
    "Bef": 29,
    "Before": 30,
    "C": 31,
    "D": 32,
    "E": 33,
    "Ex": 34,
    "Explain": 35,
    "F": 36,
    "G": 37,
    "H": 38,
    "How": 39,
    "I": 40,
    "Imag": 41,
    "Imagine": 42,
    "It": 43,
    "J": 44,
    "K": 45,
    "L": 46,
    "Le": 47,
    "Learn": 48,
    "Learning": 49,
    "M": 50,
    "N": 51,
    "O": 52,
    "P": 53,
    "Pro": 54,
    "Program": 55,
    "Programming": 56,
    "Q": 57,
    "Qu": 58,
    "Question": 59,
    "R": 60,
    "S": 61,
    "Science": 62,
    "St": 63,
    "Stud": 64,
    "Study": 65,
    "T": 66,
    "Th": 67,
    "The": 68,
    "Top": 69,
    "Topic": 70,
    "U": 71,
    "V": 72,
    "W": 73,
    "Wh": 74,
    "What": 75,
    "When": 76,
    "Why": 77,
    "X": 78,
    "Y": 79,
    "Z": 80,
    "a": 81,
    "ab": 82,
    "able": 83,
    "ac": 84,
    "ach": 85,
    "act": 86,
    "ad": 87,
    "ag": 88,
    "age": 89,
    "ain": 90,
    "ak": 91,
    "al": 92,
    "algorith": 93,
    "all": 94,
    "alu": 95,
    "an": 96,
    "and": 97,
    "ang": 98,
    "angu": 99,
    "ant": 100,
    "ap": 101,
    "appro": 102,
    "approach": 103,
    "appropr": 104,
    "appropriate": 105,
    "ar": 106,
    "are": 107,
    "arn": 108,
    "art": 109,
    "as": 110,
    "ask": 111,
    "ass": 112,
    "at": 113,
    "ata": 114,
    "ate": 115,
    "ated": 116,
    "ath": 117,
    "athem": 118,
    "atic": 119,
    "ation": 120,
    "ational": 121,
    "ations": 122,
    "av": 123,
    "ay": 124,
    "b": 125,
    "bas": 126,
    "be": 127,
    "begin": 128,
    "beginner": 129,
    "ble": 130,
    "by": 131,
    "c": 132,
    "cal": 133,
    "can": 134,
    "ce": 135,
    "cept": 136,
    "ces": 137,
    "cess": 138,
    "ch": 139,
    "check": 140,
    "ci": 141,
    "cience": 142,
    "cl": 143,
    "co": 144,
    "com": 145,
    "comm": 146,
    "comp": 147,
    "comput": 148,
    "computer": 149,
    "con": 150,
    "concept": 151,
    "concepts": 152,
    "conn": 153,
    "cor": 154,
    "cri": 155,
    "ct": 156,
    "ction": 157,
    "cul": 158,
    "d": 159,
    "data": 160,
    "de": 161,
    "defin": 162,
    "definition": 163,
    "del": 164,
    "depend": 165,
    "der": 166,
    "des": 167,
    "descri": 168,
    "describe": 169,
    "di": 170,
    "different": 171,
    "e": 172,
    "eas": 173,
    "easier": 174,
    "eb": 175,
    "ec": 176,
    "ech": 177,
    "echn": 178,
    "echnology": 179,
    "eck": 180,
    "ect": 181,
    "ects": 182,
    "ed": 183,
    "ef": 184,
    "el": 185,
    "elli": 186,
    "ellig": 187,
    "elligence": 188,
    "em": 189,
    "en": 190,
    "ence": 191,
    "end": 192,
    "ener": 193,
    "eneral": 194,
    "ent": 195,
    "entif": 196,
    "er": 197,
    "ere": 198,
    "ers": 199,
    "es": 200,
    "est": 201,
    "estion": 202,
    "ev": 203,
    "evidence": 204,
    "ex": 205,
    "exa": 206,
    "examp": 207,
    "examples": 208,
    "expect": 209,
    "expected": 210,
    "f": 211,
    "fer": 212,
    "fin": 213,
    "final": 214,
    "fir": 215,
    "first": 216,
    "for": 217,
    "form": 218,
    "found": 219,
    "fro": 220,
    "from": 221,
    "ful": 222,
    "fun": 223,
    "g": 224,
    "ge": 225,
    "ger": 226,
    "gh": 227,
    "ght": 228,
    "gin": 229,
    "giv": 230,
    "given": 231,
    "gor": 232,
    "gorith": 233,
    "gra": 234,
    "gram": 235,
    "h": 236,
    "hav": 237,
    "how": 238,
    "i": 239,
    "ial": 240,
    "iate": 241,
    "ic": 242,
    "ical": 243,
    "id": 244,
    "ide": 245,
    "idence": 246,
    "identif": 247,
    "identify": 248,
    "ier": 249,
    "ies": 250,
    "if": 251,
    "iffer": 252,
    "ifferent": 253,
    "ific": 254,
    "ificial": 255,
    "il": 256,
    "ile": 257,
    "im": 258,
    "imp": 259,
    "import": 260,
    "important": 261,
    "in": 262,
    "ine": 263,
    "inform": 264,
    "information": 265,
    "ing": 266,
    "input": 267,
    "inst": 268,
    "int": 269,
    "inter": 270,
    "interact": 271,
    "into": 272,
    "inv": 273,
    "involv": 274,
    "involving": 275,
    "ion": 276,
    "ions": 277,
    "ip": 278,
    "ir": 279,
    "is": 280,
    "isol": 281,
    "isolated": 282,
    "ist": 283,
    "it": 284,
    "ith": 285,
    "ities": 286,
    "ition": 287,
    "its": 288,
    "ity": 289,
    "iv": 290,
    "ive": 291,
    "iz": 292,
    "ization": 293,
    "izing": 294,
    "j": 295,
    "k": 296,
    "know": 297,
    "known": 298,
    "l": 299,
    "langu": 300,
    "ld": 301,
    "le": 302,
    "learn": 303,
    "learner": 304,
    "learning": 305,
    "lect": 306,
    "led": 307,
    "les": 308,
    "li": 309,
    "lim": 310,
    "limit": 311,
    "limitations": 312,
    "lo": 313,
    "ly": 314,
    "m": 315,
    "mag": 316,
    "mak": 317,
    "mall": 318,
    "man": 319,
    "many": 320,
    "me": 321,
    "meas": 322,
    "mem": 323,
    "memor": 324,
    "memorizing": 325,
    "ment": 326,
    "ments": 327,
    "meth": 328,
    "method": 329,
    "mi": 330,
    "might": 331,
    "ming": 332,
    "mo": 333,
    "mod": 334,
    "model": 335,
    "models": 336,
    "more": 337,
    "mp": 338,
    "ms": 339,
    "must": 340,
    "n": 341,
    "ne": 342,
    "ner": 343,
    "network": 344,
    "new": 345,
    "now": 346,
    "nt": 347,
    "o": 348,
    "ob": 349,
    "observ": 350,
    "od": 351,
    "of": 352,
    "oftw": 353,
    "oftware": 354,
    "og": 355,
    "ol": 356,
    "olog": 357,
    "ology": 358,
    "olv": 359,
    "on": 360,
    "ood": 361,
    "op": 362,
    "oper": 363,
    "or": 364,
    "ore": 365,
    "ork": 366,
    "ort": 367,
    "other": 368,
    "ou": 369,
    "ough": 370,
    "ould": 371,
    "oun": 372,
    "ound": 373,
    "out": 374,
    "output": 375,
    "ow": 376,
    "p": 377,
    "part": 378,
    "pect": 379,
    "pend": 380,
    "per": 381,
    "perform": 382,
    "peri": 383,
    "pl": 384,
    "plain": 385,
    "plan": 386,
    "po": 387,
    "pos": 388,
    "pose": 389,
    "pr": 390,
    "pres": 391,
    "present": 392,
    "pro": 393,
    "proble": 394,
    "problem": 395,
    "process": 396,
    "program": 397,
    "programming": 398,
    "prov": 399,
    "pt": 400,
    "pur": 401,
    "purpose": 402,
    "put": 403,
    "q": 404,
    "qu": 405,
    "quant": 406,
    "quantities": 407,
    "r": 408,
    "ra": 409,
    "re": 410,
    "reas": 411,
    "reason": 412,
    "reasoning": 413,
    "red": 414,
    "rel": 415,
    "related": 416,
    "represent": 417,
    "requ": 418,
    "requi": 419,
    "required": 420,
    "res": 421,
    "result": 422,
    "ri": 423,
    "ro": 424,
    "rough": 425,
    "s": 426,
    "se": 427,
    "select": 428,
    "ser": 429,
    "serv": 430,
    "set": 431,
    "sh": 432,
    "should": 433,
    "sit": 434,
    "situation": 435,
    "small": 436,
    "software": 437,
    "solv": 438,
    "solve": 439,
    "st": 440,
    "stem": 441,
    "str": 442,
    "struct": 443,
    "stud": 444,
    "studying": 445,
    "su": 446,
    "swer": 447,
    "sy": 448,
    "system": 449,
    "systems": 450,
    "t": 451,
    "tain": 452,
    "ter": 453,
    "th": 454,
    "that": 455,
    "the": 456,
    "ther": 457,
    "through": 458,
    "ting": 459,
    "to": 460,
    "tr": 461,
    "tra": 462,
    "train": 463,
    "training": 464,
    "trying": 465,
    "tw": 466,
    "twork": 467,
    "u": 468,
    "ual": 469,
    "uation": 470,
    "uct": 471,
    "ud": 472,
    "ug": 473,
    "ugg": 474,
    "ugging": 475,
    "ul": 476,
    "ult": 477,
    "um": 478,
    "un": 479,
    "under": 480,
    "underst": 481,
    "understand": 482,
    "understood": 483,
    "up": 484,
    "ur": 485,
    "ural": 486,
    "ure": 487,
    "ures": 488,
    "us": 489,
    "use": 490,
    "used": 491,
    "useful": 492,
    "using": 493,
    "ust": 494,
    "ut": 495,
    "v": 496,
    "valu": 497,
    "w": 498,
    "wer": 499,
    "wh": 500,
    "what": 501,
    "when": 502,
    "where": 503,
    "why": 504,
    "with": 505,
    "x": 506,
    "y": 507,
    "ying": 508,
    "you": 509,
    "z": 510,
    "﻿": 511
  },
  "id_to_token": {
    "0": "<PAD>",
    "1": "<UNK>",
    "2": "<BOS>",
    "3": "<EOS>",
    "4": " ",
    "5": "!",
    "6": "'",
    "7": "+",
    "8": ",",
    "9": "-",
    "10": ".",
    "11": "0",
    "12": "1",
    "13": "2",
    "14": "3",
    "15": "4",
    "16": "5",
    "17": "6",
    "18": "7",
    "19": "8",
    "20": "9",
    "21": ":",
    "22": "=",
    "23": "?",
    "24": "A",
    "25": "AI",
    "26": "An",
    "27": "Answer",
    "28": "B",
    "29": "Bef",
    "30": "Before",
    "31": "C",
    "32": "D",
    "33": "E",
    "34": "Ex",
    "35": "Explain",
    "36": "F",
    "37": "G",
    "38": "H",
    "39": "How",
    "40": "I",
    "41": "Imag",
    "42": "Imagine",
    "43": "It",
    "44": "J",
    "45": "K",
    "46": "L",
    "47": "Le",
    "48": "Learn",
    "49": "Learning",
    "50": "M",
    "51": "N",
    "52": "O",
    "53": "P",
    "54": "Pro",
    "55": "Program",
    "56": "Programming",
    "57": "Q",
    "58": "Qu",
    "59": "Question",
    "60": "R",
    "61": "S",
    "62": "Science",
    "63": "St",
    "64": "Stud",
    "65": "Study",
    "66": "T",
    "67": "Th",
    "68": "The",
    "69": "Top",
    "70": "Topic",
    "71": "U",
    "72": "V",
    "73": "W",
    "74": "Wh",
    "75": "What",
    "76": "When",
    "77": "Why",
    "78": "X",
    "79": "Y",
    "80": "Z",
    "81": "a",
    "82": "ab",
    "83": "able",
    "84": "ac",
    "85": "ach",
    "86": "act",
    "87": "ad",
    "88": "ag",
    "89": "age",
    "90": "ain",
    "91": "ak",
    "92": "al",
    "93": "algorith",
    "94": "all",
    "95": "alu",
    "96": "an",
    "97": "and",
    "98": "ang",
    "99": "angu",
    "100": "ant",
    "101": "ap",
    "102": "appro",
    "103": "approach",
    "104": "appropr",
    "105": "appropriate",
    "106": "ar",
    "107": "are",
    "108": "arn",
    "109": "art",
    "110": "as",
    "111": "ask",
    "112": "ass",
    "113": "at",
    "114": "ata",
    "115": "ate",
    "116": "ated",
    "117": "ath",
    "118": "athem",
    "119": "atic",
    "120": "ation",
    "121": "ational",
    "122": "ations",
    "123": "av",
    "124": "ay",
    "125": "b",
    "126": "bas",
    "127": "be",
    "128": "begin",
    "129": "beginner",
    "130": "ble",
    "131": "by",
    "132": "c",
    "133": "cal",
    "134": "can",
    "135": "ce",
    "136": "cept",
    "137": "ces",
    "138": "cess",
    "139": "ch",
    "140": "check",
    "141": "ci",
    "142": "cience",
    "143": "cl",
    "144": "co",
    "145": "com",
    "146": "comm",
    "147": "comp",
    "148": "comput",
    "149": "computer",
    "150": "con",
    "151": "concept",
    "152": "concepts",
    "153": "conn",
    "154": "cor",
    "155": "cri",
    "156": "ct",
    "157": "ction",
    "158": "cul",
    "159": "d",
    "160": "data",
    "161": "de",
    "162": "defin",
    "163": "definition",
    "164": "del",
    "165": "depend",
    "166": "der",
    "167": "des",
    "168": "descri",
    "169": "describe",
    "170": "di",
    "171": "different",
    "172": "e",
    "173": "eas",
    "174": "easier",
    "175": "eb",
    "176": "ec",
    "177": "ech",
    "178": "echn",
    "179": "echnology",
    "180": "eck",
    "181": "ect",
    "182": "ects",
    "183": "ed",
    "184": "ef",
    "185": "el",
    "186": "elli",
    "187": "ellig",
    "188": "elligence",
    "189": "em",
    "190": "en",
    "191": "ence",
    "192": "end",
    "193": "ener",
    "194": "eneral",
    "195": "ent",
    "196": "entif",
    "197": "er",
    "198": "ere",
    "199": "ers",
    "200": "es",
    "201": "est",
    "202": "estion",
    "203": "ev",
    "204": "evidence",
    "205": "ex",
    "206": "exa",
    "207": "examp",
    "208": "examples",
    "209": "expect",
    "210": "expected",
    "211": "f",
    "212": "fer",
    "213": "fin",
    "214": "final",
    "215": "fir",
    "216": "first",
    "217": "for",
    "218": "form",
    "219": "found",
    "220": "fro",
    "221": "from",
    "222": "ful",
    "223": "fun",
    "224": "g",
    "225": "ge",
    "226": "ger",
    "227": "gh",
    "228": "ght",
    "229": "gin",
    "230": "giv",
    "231": "given",
    "232": "gor",
    "233": "gorith",
    "234": "gra",
    "235": "gram",
    "236": "h",
    "237": "hav",
    "238": "how",
    "239": "i",
    "240": "ial",
    "241": "iate",
    "242": "ic",
    "243": "ical",
    "244": "id",
    "245": "ide",
    "246": "idence",
    "247": "identif",
    "248": "identify",
    "249": "ier",
    "250": "ies",
    "251": "if",
    "252": "iffer",
    "253": "ifferent",
    "254": "ific",
    "255": "ificial",
    "256": "il",
    "257": "ile",
    "258": "im",
    "259": "imp",
    "260": "import",
    "261": "important",
    "262": "in",
    "263": "ine",
    "264": "inform",
    "265": "information",
    "266": "ing",
    "267": "input",
    "268": "inst",
    "269": "int",
    "270": "inter",
    "271": "interact",
    "272": "into",
    "273": "inv",
    "274": "involv",
    "275": "involving",
    "276": "ion",
    "277": "ions",
    "278": "ip",
    "279": "ir",
    "280": "is",
    "281": "isol",
    "282": "isolated",
    "283": "ist",
    "284": "it",
    "285": "ith",
    "286": "ities",
    "287": "ition",
    "288": "its",
    "289": "ity",
    "290": "iv",
    "291": "ive",
    "292": "iz",
    "293": "ization",
    "294": "izing",
    "295": "j",
    "296": "k",
    "297": "know",
    "298": "known",
    "299": "l",
    "300": "langu",
    "301": "ld",
    "302": "le",
    "303": "learn",
    "304": "learner",
    "305": "learning",
    "306": "lect",
    "307": "led",
    "308": "les",
    "309": "li",
    "310": "lim",
    "311": "limit",
    "312": "limitations",
    "313": "lo",
    "314": "ly",
    "315": "m",
    "316": "mag",
    "317": "mak",
    "318": "mall",
    "319": "man",
    "320": "many",
    "321": "me",
    "322": "meas",
    "323": "mem",
    "324": "memor",
    "325": "memorizing",
    "326": "ment",
    "327": "ments",
    "328": "meth",
    "329": "method",
    "330": "mi",
    "331": "might",
    "332": "ming",
    "333": "mo",
    "334": "mod",
    "335": "model",
    "336": "models",
    "337": "more",
    "338": "mp",
    "339": "ms",
    "340": "must",
    "341": "n",
    "342": "ne",
    "343": "ner",
    "344": "network",
    "345": "new",
    "346": "now",
    "347": "nt",
    "348": "o",
    "349": "ob",
    "350": "observ",
    "351": "od",
    "352": "of",
    "353": "oftw",
    "354": "oftware",
    "355": "og",
    "356": "ol",
    "357": "olog",
    "358": "ology",
    "359": "olv",
    "360": "on",
    "361": "ood",
    "362": "op",
    "363": "oper",
    "364": "or",
    "365": "ore",
    "366": "ork",
    "367": "ort",
    "368": "other",
    "369": "ou",
    "370": "ough",
    "371": "ould",
    "372": "oun",
    "373": "ound",
    "374": "out",
    "375": "output",
    "376": "ow",
    "377": "p",
    "378": "part",
    "379": "pect",
    "380": "pend",
    "381": "per",
    "382": "perform",
    "383": "peri",
    "384": "pl",
    "385": "plain",
    "386": "plan",
    "387": "po",
    "388": "pos",
    "389": "pose",
    "390": "pr",
    "391": "pres",
    "392": "present",
    "393": "pro",
    "394": "proble",
    "395": "problem",
    "396": "process",
    "397": "program",
    "398": "programming",
    "399": "prov",
    "400": "pt",
    "401": "pur",
    "402": "purpose",
    "403": "put",
    "404": "q",
    "405": "qu",
    "406": "quant",
    "407": "quantities",
    "408": "r",
    "409": "ra",
    "410": "re",
    "411": "reas",
    "412": "reason",
    "413": "reasoning",
    "414": "red",
    "415": "rel",
    "416": "related",
    "417": "represent",
    "418": "requ",
    "419": "requi",
    "420": "required",
    "421": "res",
    "422": "result",
    "423": "ri",
    "424": "ro",
    "425": "rough",
    "426": "s",
    "427": "se",
    "428": "select",
    "429": "ser",
    "430": "serv",
    "431": "set",
    "432": "sh",
    "433": "should",
    "434": "sit",
    "435": "situation",
    "436": "small",
    "437": "software",
    "438": "solv",
    "439": "solve",
    "440": "st",
    "441": "stem",
    "442": "str",
    "443": "struct",
    "444": "stud",
    "445": "studying",
    "446": "su",
    "447": "swer",
    "448": "sy",
    "449": "system",
    "450": "systems",
    "451": "t",
    "452": "tain",
    "453": "ter",
    "454": "th",
    "455": "that",
    "456": "the",
    "457": "ther",
    "458": "through",
    "459": "ting",
    "460": "to",
    "461": "tr",
    "462": "tra",
    "463": "train",
    "464": "training",
    "465": "trying",
    "466": "tw",
    "467": "twork",
    "468": "u",
    "469": "ual",
    "470": "uation",
    "471": "uct",
    "472": "ud",
    "473": "ug",
    "474": "ugg",
    "475": "ugging",
    "476": "ul",
    "477": "ult",
    "478": "um",
    "479": "un",
    "480": "under",
    "481": "underst",
    "482": "understand",
    "483": "understood",
    "484": "up",
    "485": "ur",
    "486": "ural",
    "487": "ure",
    "488": "ures",
    "489": "us",
    "490": "use",
    "491": "used",
    "492": "useful",
    "493": "using",
    "494": "ust",
    "495": "ut",
    "496": "v",
    "497": "valu",
    "498": "w",
    "499": "wer",
    "500": "wh",
    "501": "what",
    "502": "when",
    "503": "where",
    "504": "why",
    "505": "with",
    "506": "x",
    "507": "y",
    "508": "ying",
    "509": "you",
    "510": "z",
    "511": "﻿"
  }
}