{
  "target_vocab_size": 512,
  "token_to_id": {
    "<PAD>": 0,
    "<UNK>": 1,
    "<BOS>": 2,
    "<EOS>": 3,
    " ": 4,
    "!": 5,
    "'": 6,
    "+": 7,
    ",": 8,
    "-": 9,
    ".": 10,
    "0": 11,
    "1": 12,
    "2": 13,
    "3": 14,
    "4": 15,
    "5": 16,
    "6": 17,
    "7": 18,
    "8": 19,
    "9": 20,
    ":": 21,
    "<": 22,
    "=": 23,
    ">": 24,
    "?": 25,
    "A": 26,
    "AI": 27,
    "An": 28,
    "Answer": 29,
    "Ass": 30,
    "Assis": 31,
    "Assistant": 32,
    "B": 33,
    "Bef": 34,
    "Before": 35,
    "C": 36,
    "D": 37,
    "E": 38,
    "Ex": 39,
    "Explain": 40,
    "F": 41,
    "G": 42,
    "H": 43,
    "How": 44,
    "I": 45,
    "Imag": 46,
    "Imagine": 47,
    "It": 48,
    "J": 49,
    "K": 50,
    "L": 51,
    "Le": 52,
    "Learn": 53,
    "Learning": 54,
    "M": 55,
    "N": 56,
    "O": 57,
    "OS": 58,
    "P": 59,
    "Pro": 60,
    "Program": 61,
    "Programming": 62,
    "Q": 63,
    "Qu": 64,
    "Question": 65,
    "R": 66,
    "S": 67,
    "Science": 68,
    "St": 69,
    "Stud": 70,
    "Study": 71,
    "T": 72,
    "Th": 73,
    "The": 74,
    "Top": 75,
    "Topic": 76,
    "U": 77,
    "User": 78,
    "V": 79,
    "W": 80,
    "Wh": 81,
    "What": 82,
    "When": 83,
    "Why": 84,
    "X": 85,
    "Y": 86,
    "Z": 87,
    "a": 88,
    "ab": 89,
    "able": 90,
    "ac": 91,
    "ach": 92,
    "act": 93,
    "ad": 94,
    "ag": 95,
    "age": 96,
    "ain": 97,
    "ak": 98,
    "al": 99,
    "algorith": 100,
    "all": 101,
    "alu": 102,
    "an": 103,
    "and": 104,
    "ang": 105,
    "angu": 106,
    "ans": 107,
    "ant": 108,
    "ap": 109,
    "appro": 110,
    "approach": 111,
    "appropr": 112,
    "appropriate": 113,
    "ar": 114,
    "are": 115,
    "arn": 116,
    "art": 117,
    "as": 118,
    "ask": 119,
    "ass": 120,
    "at": 121,
    "ata": 122,
    "ate": 123,
    "ated": 124,
    "ath": 125,
    "athem": 126,
    "atic": 127,
    "ation": 128,
    "ational": 129,
    "ations": 130,
    "av": 131,
    "ay": 132,
    "b": 133,
    "bas": 134,
    "be": 135,
    "begin": 136,
    "beginner": 137,
    "ble": 138,
    "by": 139,
    "c": 140,
    "cal": 141,
    "can": 142,
    "ce": 143,
    "cept": 144,
    "ces": 145,
    "cess": 146,
    "ch": 147,
    "check": 148,
    "ci": 149,
    "cience": 150,
    "cl": 151,
    "co": 152,
    "com": 153,
    "comm": 154,
    "comp": 155,
    "comput": 156,
    "computer": 157,
    "con": 158,
    "concept": 159,
    "concepts": 160,
    "conn": 161,
    "cor": 162,
    "cr": 163,
    "cri": 164,
    "ct": 165,
    "ction": 166,
    "ctions": 167,
    "cul": 168,
    "d": 169,
    "data": 170,
    "de": 171,
    "defin": 172,
    "definition": 173,
    "del": 174,
    "depend": 175,
    "der": 176,
    "des": 177,
    "descri": 178,
    "describe": 179,
    "di": 180,
    "dif": 181,
    "different": 182,
    "e": 183,
    "eas": 184,
    "easier": 185,
    "eb": 186,
    "ec": 187,
    "ech": 188,
    "echn": 189,
    "echnology": 190,
    "eck": 191,
    "ect": 192,
    "ects": 193,
    "ed": 194,
    "ef": 195,
    "el": 196,
    "elli": 197,
    "ellig": 198,
    "elligence": 199,
    "em": 200,
    "en": 201,
    "ence": 202,
    "end": 203,
    "ener": 204,
    "eneral": 205,
    "ent": 206,
    "entif": 207,
    "er": 208,
    "ere": 209,
    "ers": 210,
    "es": 211,
    "est": 212,
    "estion": 213,
    "ev": 214,
    "evalu": 215,
    "evidence": 216,
    "ex": 217,
    "exa": 218,
    "examp": 219,
    "examples": 220,
    "expect": 221,
    "expected": 222,
    "f": 223,
    "fer": 224,
    "ferent": 225,
    "fin": 226,
    "final": 227,
    "fir": 228,
    "for": 229,
    "form": 230,
    "found": 231,
    "fro": 232,
    "from": 233,
    "ful": 234,
    "fun": 235,
    "g": 236,
    "ge": 237,
    "gh": 238,
    "ght": 239,
    "gin": 240,
    "giv": 241,
    "given": 242,
    "gor": 243,
    "gorith": 244,
    "gra": 245,
    "gram": 246,
    "h": 247,
    "hav": 248,
    "how": 249,
    "i": 250,
    "ial": 251,
    "iate": 252,
    "ic": 253,
    "ical": 254,
    "id": 255,
    "ide": 256,
    "idence": 257,
    "identif": 258,
    "identify": 259,
    "ier": 260,
    "ies": 261,
    "if": 262,
    "ific": 263,
    "ificial": 264,
    "il": 265,
    "ile": 266,
    "imp": 267,
    "impor": 268,
    "important": 269,
    "in": 270,
    "ine": 271,
    "inform": 272,
    "information": 273,
    "ing": 274,
    "input": 275,
    "int": 276,
    "inter": 277,
    "interact": 278,
    "into": 279,
    "inv": 280,
    "involv": 281,
    "involving": 282,
    "ion": 283,
    "ions": 284,
    "ir": 285,
    "is": 286,
    "isol": 287,
    "isolated": 288,
    "ist": 289,
    "it": 290,
    "ith": 291,
    "ities": 292,
    "ition": 293,
    "its": 294,
    "ity": 295,
    "iv": 296,
    "ive": 297,
    "iz": 298,
    "ization": 299,
    "izing": 300,
    "j": 301,
    "k": 302,
    "know": 303,
    "known": 304,
    "l": 305,
    "langu": 306,
    "language": 307,
    "ld": 308,
    "le": 309,
    "learn": 310,
    "learner": 311,
    "learning": 312,
    "lect": 313,
    "led": 314,
    "les": 315,
    "li": 316,
    "lim": 317,
    "limit": 318,
    "limitations": 319,
    "lo": 320,
    "ly": 321,
    "m": 322,
    "mag": 323,
    "mak": 324,
    "mall": 325,
    "man": 326,
    "many": 327,
    "me": 328,
    "meas": 329,
    "mem": 330,
    "memor": 331,
    "memorizing": 332,
    "ment": 333,
    "ments": 334,
    "meth": 335,
    "method": 336,
    "mi": 337,
    "might": 338,
    "ming": 339,
    "mo": 340,
    "model": 341,
    "models": 342,
    "more": 343,
    "mp": 344,
    "ms": 345,
    "must": 346,
    "n": 347,
    "ne": 348,
    "ner": 349,
    "network": 350,
    "new": 351,
    "now": 352,
    "nt": 353,
    "o": 354,
    "ob": 355,
    "observ": 356,
    "od": 357,
    "of": 358,
    "oftw": 359,
    "oftware": 360,
    "og": 361,
    "ol": 362,
    "olog": 363,
    "ology": 364,
    "olv": 365,
    "on": 366,
    "ood": 367,
    "op": 368,
    "oper": 369,
    "or": 370,
    "ore": 371,
    "ork": 372,
    "other": 373,
    "ou": 374,
    "ough": 375,
    "ould": 376,
    "oun": 377,
    "ound": 378,
    "out": 379,
    "output": 380,
    "ow": 381,
    "p": 382,
    "part": 383,
    "pect": 384,
    "pend": 385,
    "per": 386,
    "perform": 387,
    "pl": 388,
    "plain": 389,
    "po": 390,
    "pos": 391,
    "pose": 392,
    "pr": 393,
    "pres": 394,
    "present": 395,
    "pro": 396,
    "proble": 397,
    "problem": 398,
    "process": 399,
    "program": 400,
    "programming": 401,
    "prov": 402,
    "pt": 403,
    "pur": 404,
    "purpose": 405,
    "put": 406,
    "q": 407,
    "qu": 408,
    "quant": 409,
    "quantities": 410,
    "r": 411,
    "ra": 412,
    "re": 413,
    "reas": 414,
    "reason": 415,
    "reasoning": 416,
    "red": 417,
    "rel": 418,
    "related": 419,
    "represent": 420,
    "requ": 421,
    "requi": 422,
    "required": 423,
    "res": 424,
    "result": 425,
    "ro": 426,
    "s": 427,
    "se": 428,
    "select": 429,
    "ser": 430,
    "serv": 431,
    "sh": 432,
    "should": 433,
    "sit": 434,
    "situ": 435,
    "situation": 436,
    "small": 437,
    "software": 438,
    "solv": 439,
    "solve": 440,
    "ss": 441,
    "st": 442,
    "stem": 443,
    "str": 444,
    "stru": 445,
    "struct": 446,
    "stud": 447,
    "studying": 448,
    "su": 449,
    "swer": 450,
    "sy": 451,
    "system": 452,
    "systems": 453,
    "t": 454,
    "tain": 455,
    "tant": 456,
    "ter": 457,
    "th": 458,
    "that": 459,
    "the": 460,
    "ther": 461,
    "ting": 462,
    "to": 463,
    "tr": 464,
    "tra": 465,
    "train": 466,
    "training": 467,
    "trying": 468,
    "tw": 469,
    "twork": 470,
    "u": 471,
    "ud": 472,
    "ug": 473,
    "ugg": 474,
    "ugging": 475,
    "ul": 476,
    "ult": 477,
    "um": 478,
    "un": 479,
    "under": 480,
    "underst": 481,
    "understand": 482,
    "understood": 483,
    "up": 484,
    "ur": 485,
    "ural": 486,
    "ure": 487,
    "ures": 488,
    "us": 489,
    "use": 490,
    "used": 491,
    "useful": 492,
    "using": 493,
    "ust": 494,
    "ut": 495,
    "v": 496,
    "valu": 497,
    "w": 498,
    "wer": 499,
    "wh": 500,
    "what": 501,
    "when": 502,
    "where": 503,
    "why": 504,
    "with": 505,
    "x": 506,
    "y": 507,
    "ying": 508,
    "you": 509,
    "z": 510,
    "﻿": 511
  },
  "id_to_token": {
    "0": "<PAD>",
    "1": "<UNK>",
    "2": "<BOS>",
    "3": "<EOS>",
    "4": " ",
    "5": "!",
    "6": "'",
    "7": "+",
    "8": ",",
    "9": "-",
    "10": ".",
    "11": "0",
    "12": "1",
    "13": "2",
    "14": "3",
    "15": "4",
    "16": "5",
    "17": "6",
    "18": "7",
    "19": "8",
    "20": "9",
    "21": ":",
    "22": "<",
    "23": "=",
    "24": ">",
    "25": "?",
    "26": "A",
    "27": "AI",
    "28": "An",
    "29": "Answer",
    "30": "Ass",
    "31": "Assis",
    "32": "Assistant",
    "33": "B",
    "34": "Bef",
    "35": "Before",
    "36": "C",
    "37": "D",
    "38": "E",
    "39": "Ex",
    "40": "Explain",
    "41": "F",
    "42": "G",
    "43": "H",
    "44": "How",
    "45": "I",
    "46": "Imag",
    "47": "Imagine",
    "48": "It",
    "49": "J",
    "50": "K",
    "51": "L",
    "52": "Le",
    "53": "Learn",
    "54": "Learning",
    "55": "M",
    "56": "N",
    "57": "O",
    "58": "OS",
    "59": "P",
    "60": "Pro",
    "61": "Program",
    "62": "Programming",
    "63": "Q",
    "64": "Qu",
    "65": "Question",
    "66": "R",
    "67": "S",
    "68": "Science",
    "69": "St",
    "70": "Stud",
    "71": "Study",
    "72": "T",
    "73": "Th",
    "74": "The",
    "75": "Top",
    "76": "Topic",
    "77": "U",
    "78": "User",
    "79": "V",
    "80": "W",
    "81": "Wh",
    "82": "What",
    "83": "When",
    "84": "Why",
    "85": "X",
    "86": "Y",
    "87": "Z",
    "88": "a",
    "89": "ab",
    "90": "able",
    "91": "ac",
    "92": "ach",
    "93": "act",
    "94": "ad",
    "95": "ag",
    "96": "age",
    "97": "ain",
    "98": "ak",
    "99": "al",
    "100": "algorith",
    "101": "all",
    "102": "alu",
    "103": "an",
    "104": "and",
    "105": "ang",
    "106": "angu",
    "107": "ans",
    "108": "ant",
    "109": "ap",
    "110": "appro",
    "111": "approach",
    "112": "appropr",
    "113": "appropriate",
    "114": "ar",
    "115": "are",
    "116": "arn",
    "117": "art",
    "118": "as",
    "119": "ask",
    "120": "ass",
    "121": "at",
    "122": "ata",
    "123": "ate",
    "124": "ated",
    "125": "ath",
    "126": "athem",
    "127": "atic",
    "128": "ation",
    "129": "ational",
    "130": "ations",
    "131": "av",
    "132": "ay",
    "133": "b",
    "134": "bas",
    "135": "be",
    "136": "begin",
    "137": "beginner",
    "138": "ble",
    "139": "by",
    "140": "c",
    "141": "cal",
    "142": "can",
    "143": "ce",
    "144": "cept",
    "145": "ces",
    "146": "cess",
    "147": "ch",
    "148": "check",
    "149": "ci",
    "150": "cience",
    "151": "cl",
    "152": "co",
    "153": "com",
    "154": "comm",
    "155": "comp",
    "156": "comput",
    "157": "computer",
    "158": "con",
    "159": "concept",
    "160": "concepts",
    "161": "conn",
    "162": "cor",
    "163": "cr",
    "164": "cri",
    "165": "ct",
    "166": "ction",
    "167": "ctions",
    "168": "cul",
    "169": "d",
    "170": "data",
    "171": "de",
    "172": "defin",
    "173": "definition",
    "174": "del",
    "175": "depend",
    "176": "der",
    "177": "des",
    "178": "descri",
    "179": "describe",
    "180": "di",
    "181": "dif",
    "182": "different",
    "183": "e",
    "184": "eas",
    "185": "easier",
    "186": "eb",
    "187": "ec",
    "188": "ech",
    "189": "echn",
    "190": "echnology",
    "191": "eck",
    "192": "ect",
    "193": "ects",
    "194": "ed",
    "195": "ef",
    "196": "el",
    "197": "elli",
    "198": "ellig",
    "199": "elligence",
    "200": "em",
    "201": "en",
    "202": "ence",
    "203": "end",
    "204": "ener",
    "205": "eneral",
    "206": "ent",
    "207": "entif",
    "208": "er",
    "209": "ere",
    "210": "ers",
    "211": "es",
    "212": "est",
    "213": "estion",
    "214": "ev",
    "215": "evalu",
    "216": "evidence",
    "217": "ex",
    "218": "exa",
    "219": "examp",
    "220": "examples",
    "221": "expect",
    "222": "expected",
    "223": "f",
    "224": "fer",
    "225": "ferent",
    "226": "fin",
    "227": "final",
    "228": "fir",
    "229": "for",
    "230": "form",
    "231": "found",
    "232": "fro",
    "233": "from",
    "234": "ful",
    "235": "fun",
    "236": "g",
    "237": "ge",
    "238": "gh",
    "239": "ght",
    "240": "gin",
    "241": "giv",
    "242": "given",
    "243": "gor",
    "244": "gorith",
    "245": "gra",
    "246": "gram",
    "247": "h",
    "248": "hav",
    "249": "how",
    "250": "i",
    "251": "ial",
    "252": "iate",
    "253": "ic",
    "254": "ical",
    "255": "id",
    "256": "ide",
    "257": "idence",
    "258": "identif",
    "259": "identify",
    "260": "ier",
    "261": "ies",
    "262": "if",
    "263": "ific",
    "264": "ificial",
    "265": "il",
    "266": "ile",
    "267": "imp",
    "268": "impor",
    "269": "important",
    "270": "in",
    "271": "ine",
    "272": "inform",
    "273": "information",
    "274": "ing",
    "275": "input",
    "276": "int",
    "277": "inter",
    "278": "interact",
    "279": "into",
    "280": "inv",
    "281": "involv",
    "282": "involving",
    "283": "ion",
    "284": "ions",
    "285": "ir",
    "286": "is",
    "287": "isol",
    "288": "isolated",
    "289": "ist",
    "290": "it",
    "291": "ith",
    "292": "ities",
    "293": "ition",
    "294": "its",
    "295": "ity",
    "296": "iv",
    "297": "ive",
    "298": "iz",
    "299": "ization",
    "300": "izing",
    "301": "j",
    "302": "k",
    "303": "know",
    "304": "known",
    "305": "l",
    "306": "langu",
    "307": "language",
    "308": "ld",
    "309": "le",
    "310": "learn",
    "311": "learner",
    "312": "learning",
    "313": "lect",
    "314": "led",
    "315": "les",
    "316": "li",
    "317": "lim",
    "318": "limit",
    "319": "limitations",
    "320": "lo",
    "321": "ly",
    "322": "m",
    "323": "mag",
    "324": "mak",
    "325": "mall",
    "326": "man",
    "327": "many",
    "328": "me",
    "329": "meas",
    "330": "mem",
    "331": "memor",
    "332": "memorizing",
    "333": "ment",
    "334": "ments",
    "335": "meth",
    "336": "method",
    "337": "mi",
    "338": "might",
    "339": "ming",
    "340": "mo",
    "341": "model",
    "342": "models",
    "343": "more",
    "344": "mp",
    "345": "ms",
    "346": "must",
    "347": "n",
    "348": "ne",
    "349": "ner",
    "350": "network",
    "351": "new",
    "352": "now",
    "353": "nt",
    "354": "o",
    "355": "ob",
    "356": "observ",
    "357": "od",
    "358": "of",
    "359": "oftw",
    "360": "oftware",
    "361": "og",
    "362": "ol",
    "363": "olog",
    "364": "ology",
    "365": "olv",
    "366": "on",
    "367": "ood",
    "368": "op",
    "369": "oper",
    "370": "or",
    "371": "ore",
    "372": "ork",
    "373": "other",
    "374": "ou",
    "375": "ough",
    "376": "ould",
    "377": "oun",
    "378": "ound",
    "379": "out",
    "380": "output",
    "381": "ow",
    "382": "p",
    "383": "part",
    "384": "pect",
    "385": "pend",
    "386": "per",
    "387": "perform",
    "388": "pl",
    "389": "plain",
    "390": "po",
    "391": "pos",
    "392": "pose",
    "393": "pr",
    "394": "pres",
    "395": "present",
    "396": "pro",
    "397": "proble",
    "398": "problem",
    "399": "process",
    "400": "program",
    "401": "programming",
    "402": "prov",
    "403": "pt",
    "404": "pur",
    "405": "purpose",
    "406": "put",
    "407": "q",
    "408": "qu",
    "409": "quant",
    "410": "quantities",
    "411": "r",
    "412": "ra",
    "413": "re",
    "414": "reas",
    "415": "reason",
    "416": "reasoning",
    "417": "red",
    "418": "rel",
    "419": "related",
    "420": "represent",
    "421": "requ",
    "422": "requi",
    "423": "required",
    "424": "res",
    "425": "result",
    "426": "ro",
    "427": "s",
    "428": "se",
    "429": "select",
    "430": "ser",
    "431": "serv",
    "432": "sh",
    "433": "should",
    "434": "sit",
    "435": "situ",
    "436": "situation",
    "437": "small",
    "438": "software",
    "439": "solv",
    "440": "solve",
    "441": "ss",
    "442": "st",
    "443": "stem",
    "444": "str",
    "445": "stru",
    "446": "struct",
    "447": "stud",
    "448": "studying",
    "449": "su",
    "450": "swer",
    "451": "sy",
    "452": "system",
    "453": "systems",
    "454": "t",
    "455": "tain",
    "456": "tant",
    "457": "ter",
    "458": "th",
    "459": "that",
    "460": "the",
    "461": "ther",
    "462": "ting",
    "463": "to",
    "464": "tr",
    "465": "tra",
    "466": "train",
    "467": "training",
    "468": "trying",
    "469": "tw",
    "470": "twork",
    "471": "u",
    "472": "ud",
    "473": "ug",
    "474": "ugg",
    "475": "ugging",
    "476": "ul",
    "477": "ult",
    "478": "um",
    "479": "un",
    "480": "under",
    "481": "underst",
    "482": "understand",
    "483": "understood",
    "484": "up",
    "485": "ur",
    "486": "ural",
    "487": "ure",
    "488": "ures",
    "489": "us",
    "490": "use",
    "491": "used",
    "492": "useful",
    "493": "using",
    "494": "ust",
    "495": "ut",
    "496": "v",
    "497": "valu",
    "498": "w",
    "499": "wer",
    "500": "wh",
    "501": "what",
    "502": "when",
    "503": "where",
    "504": "why",
    "505": "with",
    "506": "x",
    "507": "y",
    "508": "ying",
    "509": "you",
    "510": "z",
    "511": "﻿"
  }
}